#include "model_quantized.h"

const unsigned char model_quantized[] = {
  0x1c, 0x00, 0x00, 0x00, 0x54, 0x46, 0x4c, 0x33, 0x14, 0x00, 0x20, 0x00,
  0x1c, 0x00, 0x18, 0x00, 0x14, 0x00, 0x10, 0x00, 0x0c, 0x00, 0x00, 0x00,
  0x08, 0x00, 0x04, 0x00, 0x14, 0x00, 0x00, 0x00, 0x1c, 0x00, 0x00, 0x00,
  0x88, 0x00, 0x00, 0x00, 0xe0, 0x00, 0x00, 0x00, 0x8c, 0x06, 0x00, 0x00,
  0x9c, 0x06, 0x00, 0x00, 0x30, 0x0c, 0x00, 0x00, 0x03, 0x00, 0x00, 0x00,
  0x01, 0x00, 0x00, 0x00, 0x04, 0x00, 0x00, 0x00, 0x26, 0xf9, 0xff, 0xff,
  0x0c, 0x00, 0x00, 0x00, 0x1c, 0x00, 0x00, 0x00, 0x3c, 0x00, 0x00, 0x00,
  0x0f, 0x00, 0x00, 0x00, 0x73, 0x65, 0x72, 0x76, 0x69, 0x6e, 0x67, 0x5f,
  0x64, 0x65, 0x66, 0x61, 0x75, 0x6c, 0x74, 0x00, 0x01, 0x00, 0x00, 0x00,
  0x04, 0x00, 0x00, 0x00, 0x94, 0xff, 0xff, 0xff, 0x0a, 0x00, 0x00, 0x00,
  0x04, 0x00, 0x00, 0x00, 0x08, 0x00, 0x00, 0x00, 0x6f, 0x75, 0x74, 0x70,
  0x75, 0x74, 0x5f, 0x30, 0x00, 0x00, 0x00, 0x00, 0x01, 0x00, 0x00, 0x00,
  0x04, 0x00, 0x00, 0x00, 0x16, 0xfa, 0xff, 0xff, 0x04, 0x00, 0x00, 0x00,
  0x0b, 0x00, 0x00, 0x00, 0x69, 0x6e, 0x70, 0x75, 0x74, 0x5f, 0x6c, 0x61,
  0x79, 0x65, 0x72, 0x00, 0x02, 0x00, 0x00, 0x00, 0x34, 0x00, 0x00, 0x00,
  0x04, 0x00, 0x00, 0x00, 0xdc, 0xff, 0xff, 0xff, 0x0d, 0x00, 0x00, 0x00,
  0x04, 0x00, 0x00, 0x00, 0x13, 0x00, 0x00, 0x00, 0x43, 0x4f, 0x4e, 0x56,
  0x45, 0x52, 0x53, 0x49, 0x4f, 0x4e, 0x5f, 0x4d, 0x45, 0x54, 0x41, 0x44,
  0x41, 0x54, 0x41, 0x00, 0x08, 0x00, 0x0c, 0x00, 0x08, 0x00, 0x04, 0x00,
  0x08, 0x00, 0x00, 0x00, 0x0c, 0x00, 0x00, 0x00, 0x04, 0x00, 0x00, 0x00,
  0x13, 0x00, 0x00, 0x00, 0x6d, 0x69, 0x6e, 0x5f, 0x72, 0x75, 0x6e, 0x74,
  0x69, 0x6d, 0x65, 0x5f, 0x76, 0x65, 0x72, 0x73, 0x69, 0x6f, 0x6e, 0x00,
  0x0e, 0x00, 0x00, 0x00, 0xa8, 0x05, 0x00, 0x00, 0xa0, 0x05, 0x00, 0x00,
  0x70, 0x05, 0x00, 0x00, 0x58, 0x03, 0x00, 0x00, 0x44, 0x03, 0x00, 0x00,
  0x14, 0x03, 0x00, 0x00, 0xc4, 0x02, 0x00, 0x00, 0xb4, 0x00, 0x00, 0x00,
  0xac, 0x00, 0x00, 0x00, 0xa4, 0x00, 0x00, 0x00, 0x9c, 0x00, 0x00, 0x00,
  0x94, 0x00, 0x00, 0x00, 0x74, 0x00, 0x00, 0x00, 0x04, 0x00, 0x00, 0x00,
  0xc6, 0xfa, 0xff, 0xff, 0x04, 0x00, 0x00, 0x00, 0x60, 0x00, 0x00, 0x00,
  0x0c, 0x00, 0x00, 0x00, 0x08, 0x00, 0x0e, 0x00, 0x08, 0x00, 0x04, 0x00,
  0x08, 0x00, 0x00, 0x00, 0x10, 0x00, 0x00, 0x00, 0x28, 0x00, 0x00, 0x00,
  0x00, 0x00, 0x06, 0x00, 0x08, 0x00, 0x04, 0x00, 0x06, 0x00, 0x00, 0x00,
  0x04, 0x00, 0x00, 0x00, 0x01, 0x00, 0x00, 0x00, 0xea, 0x03, 0x00, 0x00,
  0x0c, 0x00, 0x18, 0x00, 0x14, 0x00, 0x10, 0x00, 0x0c, 0x00, 0x04, 0x00,
  0x0c, 0x00, 0x00, 0x00, 0x5d, 0x1d, 0xc6, 0x03, 0x91, 0x4a, 0x24, 0x2a,
  0x02, 0x00, 0x00, 0x00, 0x02, 0x00, 0x00, 0x00, 0x04, 0x00, 0x00, 0x00,
  0x06, 0x00, 0x00, 0x00, 0x32, 0x2e, 0x31, 0x38, 0x2e, 0x30, 0x00, 0x00,
  0x32, 0xfb, 0xff, 0xff, 0x04, 0x00, 0x00, 0x00, 0x10, 0x00, 0x00, 0x00,
  0x31, 0x2e, 0x31, 0x34, 0x2e, 0x30, 0x00, 0x00, 0x00, 0x00, 0x00, 0x00,
  0x00, 0x00, 0x00, 0x00, 0xa0, 0xf5, 0xff, 0xff, 0xa4, 0xf5, 0xff, 0xff,
  0xa8, 0xf5, 0xff, 0xff, 0xac, 0xf5, 0xff, 0xff, 0x5e, 0xfb, 0xff, 0xff,
  0x04, 0x00, 0x00, 0x00, 0x00, 0x02, 0x00, 0x00, 0xb7, 0xb3, 0xf8, 0x3d,
  0xb1, 0xcf, 0x15, 0xbe, 0x8c, 0xd6, 0xcb, 0xbe, 0x21, 0xe2, 0xe2, 0x3e,
  0x2a, 0x13, 0x3b, 0xbf, 0xdd, 0x37, 0x7a, 0x3e, 0xdb, 0x60, 0x0c, 0xbf,
  0xe7, 0xc8, 0x23, 0xbf, 0x34, 0xf4, 0xc5, 0xbe, 0x16, 0x26, 0xa4, 0x3b,
  0x70, 0x27, 0x7d, 0xbf, 0x64, 0x28, 0xb8, 0x3e, 0x22, 0x8d, 0x30, 0x3e,
  0x38, 0x02, 0x8e, 0xbe, 0x51, 0x72, 0xa3, 0xbe, 0x1f, 0x7b, 0x40, 0xbe,
  0x32, 0x84, 0x34, 0xbe, 0xfb, 0x60, 0xbe, 0xbe, 0x96, 0x22, 0x0d, 0xbe,
  0xf2, 0xf7, 0x03, 0x3f, 0xa1, 0xb9, 0x90, 0x3e, 0xec, 0x33, 0x47, 0xbe,
  0xcb, 0x48, 0xb8, 0xbe, 0x12, 0x04, 0x01, 0xbc, 0xed, 0xde, 0x22, 0xbe,
  0xbe, 0x47, 0x67, 0x3e, 0xcf, 0x8c, 0x55, 0xbf, 0xcb, 0x96, 0x8a, 0xbe,
  0x16, 0xa4, 0x70, 0xbe, 0xc2, 0x85, 0xa0, 0xbe, 0x3c, 0xb6, 0xa8, 0x3d,
  0x1b, 0x6c, 0x74, 0x3e, 0xce, 0xf7, 0xa4, 0x3e, 0x2b, 0x13, 0xa8, 0x3e,
  0xc5, 0x38, 0x16, 0xbf, 0x1b, 0x02, 0xe5, 0x3d, 0x2c, 0xfc, 0x82, 0xbe,
  0x62, 0xa7, 0x6f, 0x3c, 0x07, 0x04, 0xb0, 0xbe, 0xb3, 0x5e, 0x9f, 0xbe,
  0xce, 0xb9, 0x69, 0xbe, 0x00, 0x5b, 0xa4, 0x3e, 0xb0, 0xb5, 0x3c, 0xbe,
  0x5a, 0xcb, 0x74, 0x3c, 0x89, 0xb1, 0x7f, 0xbf, 0x3e, 0xea, 0xd0, 0xbe,
  0xf6, 0xfb, 0xa9, 0xbc, 0xe5, 0xff, 0x74, 0xbd, 0x0f, 0x05, 0x81, 0x3e,
  0xd2, 0x3a, 0xf7, 0x3d, 0xcf, 0xd5, 0x90, 0xbe, 0xfd, 0x17, 0x1d, 0x3e,
  0x4b, 0x70, 0x29, 0x3e, 0x4e, 0xce, 0x07, 0xbd, 0x71, 0xc2, 0x2c, 0xbf,
  0xbf, 0xfe, 0x46, 0xbe, 0xeb, 0xe2, 0xe9, 0x3d, 0x82, 0x31, 0xfa, 0xbe,
  0x3a, 0x69, 0x05, 0x3f, 0x54, 0xed, 0x03, 0x3f, 0xd2, 0x02, 0x7b, 0xbe,
  0xee, 0x9d, 0x25, 0xbe, 0x52, 0x8f, 0xc1, 0xbb, 0x41, 0xc2, 0xf3, 0x3e,
  0x89, 0xb2, 0x07, 0x3f, 0x9f, 0x57, 0x50, 0x3d, 0xa7, 0x8a, 0x05, 0xbe,
  0x02, 0xce, 0x08, 0x3f, 0xde, 0xab, 0xe1, 0x3e, 0x22, 0x21, 0xe0, 0x3e,
  0x30, 0x68, 0xbb, 0xbe, 0x7c, 0x14, 0x44, 0x3e, 0xef, 0xd7, 0x21, 0x3e,
  0x7c, 0x22, 0xa9, 0xbd, 0xf2, 0x22, 0xb6, 0xbe, 0x2c, 0x4e, 0x11, 0xbf,
  0x99, 0xa1, 0x29, 0xbf, 0xfa, 0x02, 0x24, 0xbf, 0x7f, 0x5c, 0x67, 0x3e,
  0x74, 0x9d, 0xcc, 0xbe, 0xb5, 0xfd, 0x22, 0x3f, 0x31, 0xc3, 0x52, 0xbf,
  0xbf, 0x31, 0x82, 0x3e, 0xb6, 0x07, 0x33, 0xbe, 0x01, 0xad, 0xce, 0x3d,
  0xf9, 0xd0, 0x9e, 0xbd, 0x88, 0xda, 0x80, 0x3e, 0x9c, 0xf9, 0x19, 0xbe,
  0xf9, 0xa9, 0x1b, 0xbe, 0xd2, 0xb1, 0x15, 0x3f, 0x9f, 0x66, 0x80, 0xbe,
  0x0f, 0x9e, 0x61, 0x3e, 0x05, 0x65, 0xa1, 0x3d, 0xd6, 0x18, 0xad, 0x3e,
  0xe9, 0xe9, 0xd5, 0x3d, 0x86, 0x6f, 0xf5, 0x3d, 0x48, 0x93, 0x1b, 0x3e,
  0xdc, 0x37, 0xd6, 0xbe, 0xaa, 0x49, 0x45, 0xbf, 0xd2, 0x18, 0x21, 0xbe,
  0x30, 0x6f, 0x80, 0x3e, 0xe7, 0x95, 0x4b, 0x3e, 0x9e, 0xc8, 0xaa, 0x3c,
  0x03, 0x18, 0x86, 0x3c, 0x39, 0x7b, 0xb5, 0xbe, 0xc8, 0xe4, 0xdb, 0x3d,
  0x00, 0xc7, 0x8b, 0x3e, 0x96, 0xcd, 0x3f, 0xbe, 0x03, 0xeb, 0x5d, 0xbe,
  0x7c, 0xa1, 0xa8, 0x3e, 0xed, 0x2e, 0x31, 0x3c, 0xdc, 0x6f, 0xaa, 0x3e,
  0x3c, 0x49, 0xa5, 0xbd, 0x30, 0xb3, 0xa0, 0xbe, 0x9c, 0x78, 0x22, 0x3e,
  0x9a, 0x85, 0x22, 0xbe, 0xc5, 0xf1, 0xb0, 0x3d, 0x36, 0xf8, 0xca, 0xbe,
  0xda, 0x88, 0xa6, 0x3e, 0x7a, 0xe8, 0xd7, 0x3e, 0xa5, 0x08, 0x0b, 0xbd,
  0x20, 0x60, 0x4a, 0x3e, 0xdd, 0xbb, 0xd1, 0x3e, 0xc1, 0x37, 0xcd, 0x3e,
  0xc5, 0x4e, 0xd7, 0x3e, 0x37, 0x02, 0x0d, 0x3c, 0xc7, 0xc1, 0xae, 0x3d,
  0x3e, 0x60, 0x16, 0x3f, 0x6a, 0xfd, 0xff, 0xff, 0x04, 0x00, 0x00, 0x00,
  0x40, 0x00, 0x00, 0x00, 0x2b, 0xc9, 0x0e, 0xbe, 0xc5, 0x3c, 0x03, 0xbd,
  0x3b, 0xcf, 0x37, 0x3e, 0x58, 0x99, 0x2e, 0x3e, 0x0b, 0x49, 0xc6, 0xbe,
  0x54, 0xf4, 0x2d, 0xbe, 0x14, 0x3c, 0x3e, 0xbe, 0x27, 0x5a, 0xa3, 0x3e,
  0xc9, 0x9e, 0x64, 0xbd, 0x5b, 0x6f, 0x04, 0xbe, 0xad, 0x87, 0x6c, 0xbe,
  0x0f, 0x4f, 0x2b, 0xbd, 0x2e, 0x2d, 0xff, 0xbd, 0x17, 0x06, 0xd1, 0xbd,
  0xae, 0x68, 0x7f, 0x3e, 0xbe, 0xd3, 0x9a, 0x3e, 0xb6, 0xfd, 0xff, 0xff,
  0x04, 0x00, 0x00, 0x00, 0x20, 0x00, 0x00, 0x00, 0x4a, 0xde, 0x6e, 0x3e,
  0xb4, 0x2c, 0xb0, 0x3e, 0x3e, 0xb5, 0x52, 0x3e, 0x2d, 0xe7, 0xb9, 0x3d,
  0x7e, 0xbf, 0xc2, 0x3b, 0x25, 0xff, 0xff, 0x3d, 0x65, 0x62, 0x5e, 0xbe,
  0x89, 0xc2, 0x14, 0x3e, 0xe2, 0xfd, 0xff, 0xff, 0x04, 0x00, 0x00, 0x00,
  0x04, 0x00, 0x00, 0x00, 0x60, 0x44, 0x79, 0x3d, 0xf2, 0xfd, 0xff, 0xff,
  0x04, 0x00, 0x00, 0x00, 0x00, 0x02, 0x00, 0x00, 0xee, 0xc3, 0xaf, 0x3e,
  0xba, 0x3e, 0xa5, 0xbe, 0xc1, 0x79, 0x83, 0x3d, 0xf1, 0xf7, 0x91, 0x3d,
  0x98, 0xa2, 0x5d, 0xbf, 0xa0, 0x53, 0xb8, 0x3e, 0x7d, 0x39, 0x32, 0xbf,
  0x25, 0xd8, 0x58, 0xbe, 0xb8, 0xa8, 0x83, 0x3d, 0x69, 0x6e, 0x24, 0xbe,
  0x96, 0xd0, 0xab, 0xbf, 0x2d, 0x45, 0x82, 0x3e, 0x50, 0x14, 0x4c, 0xbe,
  0x88, 0x1a, 0xc2, 0x3b, 0x35, 0xfe, 0xee, 0x3e, 0xff, 0x03, 0x48, 0x3e,
  0x46, 0x42, 0xe0, 0xbe, 0xc3, 0x40, 0xd3, 0x3e, 0x5a, 0x5a, 0xa3, 0x3e,
  0xbb, 0x5b, 0x2a, 0xbe, 0x47, 0xb0, 0xce, 0xbe, 0x2d, 0xbb, 0xba, 0x3e,
  0x4c, 0x0c, 0x6b, 0x3e, 0xda, 0x7b, 0xb9, 0x3e, 0x6f, 0xd8, 0x17, 0xbf,
  0x0c, 0xaa, 0xae, 0xbe, 0xd8, 0x19, 0x89, 0x3c, 0x26, 0x21, 0xe2, 0xbe,
  0x0b, 0x42, 0x29, 0x3e, 0x08, 0x76, 0x54, 0x3e, 0x57, 0x4e, 0x93, 0x3e,
  0xb5, 0x95, 0x89, 0xbe, 0xdc, 0xa4, 0xfd, 0xbe, 0xe8, 0x1e, 0x2b, 0x3f,
  0x68, 0x55, 0x10, 0xbe, 0x34, 0x76, 0xf1, 0x3d, 0x08, 0x61, 0xca, 0xbe,
  0x56, 0xbb, 0x17, 0x3f, 0xe3, 0xf8, 0xcc, 0xbe, 0x87, 0x89, 0x95, 0x3e,
  0xd0, 0x05, 0xab, 0xbf, 0x9b, 0xd8, 0x3b, 0x3e, 0x6d, 0xc3, 0x94, 0x3d,
  0xc9, 0x0a, 0xc5, 0xbe, 0x0e, 0xf7, 0x2f, 0x3c, 0x1a, 0xa7, 0x47, 0x3e,
  0x98, 0x8f, 0xc3, 0x3e, 0x8a, 0x38, 0x8a, 0xbd, 0x1b, 0x2e, 0xb3, 0xbf,
  0x6f, 0x27, 0xc4, 0xbf, 0xc7, 0xb7, 0xbe, 0x3e, 0xad, 0xcf, 0xd3, 0xbf,
  0x9e, 0x8d, 0xcf, 0xbd, 0x08, 0xf5, 0x34, 0x3f, 0xa1, 0x77, 0x88, 0xbe,
  0x09, 0xde, 0x02, 0x3e, 0xdd, 0x7a, 0xcd, 0xbf, 0x95, 0x3e, 0x33, 0xbf,
  0x1d, 0xcd, 0x51, 0xbb, 0x5a, 0x17, 0x0c, 0xbf, 0xbe, 0x67, 0x90, 0xbf,
  0xa5, 0x4e, 0x96, 0x3d, 0x7f, 0x63, 0x5e, 0xbe, 0x94, 0x03, 0x19, 0xbe,
  0xbc, 0x07, 0xfa, 0xbe, 0x50, 0xfc, 0xb7, 0x3e, 0xeb, 0x73, 0x80, 0x3e,
  0x68, 0x64, 0xb1, 0xbd, 0x30, 0x63, 0x83, 0xbe, 0xe5, 0xfc, 0x7a, 0xbe,
  0x1c, 0x83, 0x96, 0x3d, 0xcd, 0xca, 0x98, 0xbf, 0x22, 0xc6, 0xf3, 0xbd,
  0x00, 0xc7, 0x07, 0xbf, 0x46, 0x22, 0x50, 0x3e, 0x73, 0xeb, 0xb2, 0x3e,
  0xd5, 0x00, 0x48, 0xbf, 0x00, 0x4e, 0xf9, 0x3e, 0x44, 0x07, 0x81, 0xbe,
  0x64, 0x86, 0x82, 0xbe, 0x12, 0x8f, 0xa1, 0xbe, 0xe5, 0x4a, 0x2e, 0x3e,
  0x95, 0xa5, 0x1d, 0x3f, 0x04, 0x8f, 0xce, 0xbe, 0x43, 0x8a, 0x0c, 0xbe,
  0xb1, 0xc1, 0x15, 0x3e, 0xb9, 0x1b, 0x30, 0xbe, 0x9d, 0xed, 0x57, 0xbf,
  0x1e, 0x6c, 0x19, 0xbe, 0x22, 0x07, 0x47, 0x3e, 0x12, 0xb4, 0x08, 0xbf,
  0xa1, 0x4a, 0xbc, 0xbd, 0x88, 0x65, 0x04, 0x3f, 0xfa, 0x8f, 0x71, 0xbe,
  0x56, 0x5a, 0x05, 0xbd, 0x58, 0x6f, 0x0f, 0x3f, 0x8e, 0x8d, 0xc1, 0x3d,
  0x5e, 0xb4, 0x2b, 0x3f, 0x3b, 0x8c, 0x5a, 0x3e, 0x48, 0x0c, 0x13, 0x3e,
  0xe0, 0xf9, 0x94, 0xbe, 0xef, 0xe2, 0x87, 0xbe, 0xd0, 0xa2, 0xc1, 0x3e,
  0xa3, 0x35, 0x2b, 0xbe, 0x94, 0x47, 0xbd, 0x3e, 0x49, 0x15, 0x08, 0x3f,
  0x5f, 0xe2, 0xee, 0xbd, 0x22, 0x9b, 0x94, 0xbd, 0x69, 0x32, 0x28, 0x3e,
  0xad, 0x47, 0x9c, 0xbe, 0x4a, 0xd1, 0xa2, 0x3e, 0x78, 0xd3, 0xa1, 0xbe,
  0x2e, 0xcc, 0xf5, 0x3e, 0xfd, 0xfb, 0xaf, 0xbc, 0x42, 0xca, 0x8f, 0xbe,
  0x18, 0xff, 0x0c, 0xbf, 0x25, 0x55, 0x64, 0x3d, 0x7d, 0x6f, 0xec, 0x3e,
  0x6c, 0xfe, 0xa7, 0x3e, 0x01, 0x76, 0xc2, 0x3d, 0x84, 0x4a, 0x1d, 0xbf,
  0x9f, 0xd1, 0xd0, 0x3e, 0x65, 0xef, 0x15, 0xbf, 0x00, 0xd0, 0x92, 0x3e,
  0x4f, 0x4e, 0xa7, 0xbe, 0x06, 0x99, 0x8c, 0x3d, 0x6b, 0x6b, 0x02, 0x3f,
  0xdf, 0xed, 0x3a, 0xbd, 0x00, 0x00, 0x06, 0x00, 0x08, 0x00, 0x04, 0x00,
  0x06, 0x00, 0x00, 0x00, 0x04, 0x00, 0x00, 0x00, 0x20, 0x00, 0x00, 0x00,
  0x7f, 0xaf, 0x39, 0x3f, 0x47, 0x3b, 0x43, 0x3e, 0x39, 0x84, 0x9a, 0x3e,
  0x41, 0x08, 0xe1, 0xbf, 0xe0, 0x04, 0x4f, 0x3f, 0x8d, 0x7d, 0xb1, 0x3e,
  0x44, 0x82, 0xe8, 0xbe, 0x9e, 0x6e, 0xef, 0x3e, 0x84, 0xfa, 0xff, 0xff,
  0x88, 0xfa, 0xff, 0xff, 0x0f, 0x00, 0x00, 0x00, 0x4d, 0x4c, 0x49, 0x52,
  0x20, 0x43, 0x6f, 0x6e, 0x76, 0x65, 0x72, 0x74, 0x65, 0x64, 0x2e, 0x00,
  0x01, 0x00, 0x00, 0x00, 0x14, 0x00, 0x00, 0x00, 0x00, 0x00, 0x0e, 0x00,
  0x18, 0x00, 0x14, 0x00, 0x10, 0x00, 0x0c, 0x00, 0x08, 0x00, 0x04, 0x00,
  0x0e, 0x00, 0x00, 0x00, 0x14, 0x00, 0x00, 0x00, 0x1c, 0x00, 0x00, 0x00,
  0x08, 0x01, 0x00, 0x00, 0x0c, 0x01, 0x00, 0x00, 0x10, 0x01, 0x00, 0x00,
  0x04, 0x00, 0x00, 0x00, 0x6d, 0x61, 0x69, 0x6e, 0x00, 0x00, 0x00, 0x00,
  0x04, 0x00, 0x00, 0x00, 0xb0, 0x00, 0x00, 0x00, 0x68, 0x00, 0x00, 0x00,
  0x34, 0x00, 0x00, 0x00, 0x10, 0x00, 0x00, 0x00, 0x00, 0x00, 0x0a, 0x00,
  0x10, 0x00, 0x0c, 0x00, 0x08, 0x00, 0x04, 0x00, 0x0a, 0x00, 0x00, 0x00,
  0x0c, 0x00, 0x00, 0x00, 0x10, 0x00, 0x00, 0x00, 0x01, 0x00, 0x00, 0x00,
  0x01, 0x00, 0x00, 0x00, 0x0a, 0x00, 0x00, 0x00, 0x01, 0x00, 0x00, 0x00,
  0x09, 0x00, 0x00, 0x00, 0x9a, 0xff, 0xff, 0xff, 0x10, 0x00, 0x00, 0x00,
  0x00, 0x00, 0x00, 0x08, 0x0c, 0x00, 0x00, 0x00, 0x10, 0x00, 0x00, 0x00,
  0x30, 0xfb, 0xff, 0xff, 0x01, 0x00, 0x00, 0x00, 0x09, 0x00, 0x00, 0x00,
  0x03, 0x00, 0x00, 0x00, 0x08, 0x00, 0x00, 0x00, 0x01, 0x00, 0x00, 0x00,
  0x03, 0x00, 0x00, 0x00, 0xca, 0xff, 0xff, 0xff, 0x10, 0x00, 0x00, 0x00,
  0x00, 0x00, 0x00, 0x08, 0x10, 0x00, 0x00, 0x00, 0x14, 0x00, 0x00, 0x00,
  0xba, 0xff, 0xff, 0xff, 0x00, 0x00, 0x00, 0x01, 0x01, 0x00, 0x00, 0x00,
  0x08, 0x00, 0x00, 0x00, 0x03, 0x00, 0x00, 0x00, 0x07, 0x00, 0x00, 0x00,
  0x02, 0x00, 0x00, 0x00, 0x04, 0x00, 0x00, 0x00, 0x00, 0x00, 0x0e, 0x00,
  0x16, 0x00, 0x00, 0x00, 0x10, 0x00, 0x0c, 0x00, 0x0b, 0x00, 0x04, 0x00,
  0x0e, 0x00, 0x00, 0x00, 0x18, 0x00, 0x00, 0x00, 0x00, 0x00, 0x00, 0x08,
  0x18, 0x00, 0x00, 0x00, 0x1c, 0x00, 0x00, 0x00, 0x00, 0x00, 0x06, 0x00,
  0x08, 0x00, 0x07, 0x00, 0x06, 0x00, 0x00, 0x00, 0x00, 0x00, 0x00, 0x01,
  0x01, 0x00, 0x00, 0x00, 0x07, 0x00, 0x00, 0x00, 0x03, 0x00, 0x00, 0x00,
  0x00, 0x00, 0x00, 0x00, 0x06, 0x00, 0x00, 0x00, 0x05, 0x00, 0x00, 0x00,
  0x01, 0x00, 0x00, 0x00, 0x0a, 0x00, 0x00, 0x00, 0x01, 0x00, 0x00, 0x00,
  0x00, 0x00, 0x00, 0x00, 0x0b, 0x00, 0x00, 0x00, 0xf8, 0x03, 0x00, 0x00,
  0xa0, 0x03, 0x00, 0x00, 0x48, 0x03, 0x00, 0x00, 0x0c, 0x03, 0x00, 0x00,
  0xb0, 0x02, 0x00, 0x00, 0x58, 0x02, 0x00, 0x00, 0x0c, 0x02, 0x00, 0x00,
  0x78, 0x01, 0x00, 0x00, 0xdc, 0x00, 0x00, 0x00, 0x60, 0x00, 0x00, 0x00,
  0x04, 0x00, 0x00, 0x00, 0x4a, 0xfc, 0xff, 0xff, 0x00, 0x00, 0x00, 0x01,
  0x14, 0x00, 0x00, 0x00, 0x1c, 0x00, 0x00, 0x00, 0x1c, 0x00, 0x00, 0x00,
  0x0b, 0x00, 0x00, 0x00, 0x34, 0x00, 0x00, 0x00, 0x02, 0x00, 0x00, 0x00,
  0xff, 0xff, 0xff, 0xff, 0x01, 0x00, 0x00, 0x00, 0x34, 0xfc, 0xff, 0xff,
  0x1b, 0x00, 0x00, 0x00, 0x53, 0x74, 0x61, 0x74, 0x65, 0x66, 0x75, 0x6c,
  0x50, 0x61, 0x72, 0x74, 0x69, 0x74, 0x69, 0x6f, 0x6e, 0x65, 0x64, 0x43,
  0x61, 0x6c, 0x6c, 0x5f, 0x31, 0x3a, 0x30, 0x00, 0x02, 0x00, 0x00, 0x00,
  0x01, 0x00, 0x00, 0x00, 0x01, 0x00, 0x00, 0x00, 0xa2, 0xfc, 0xff, 0xff,
  0x00, 0x00, 0x00, 0x01, 0x14, 0x00, 0x00, 0x00, 0x1c, 0x00, 0x00, 0x00,
  0x1c, 0x00, 0x00, 0x00, 0x0a, 0x00, 0x00, 0x00, 0x54, 0x00, 0x00, 0x00,
  0x02, 0x00, 0x00, 0x00, 0xff, 0xff, 0xff, 0xff, 0x01, 0x00, 0x00, 0x00,
  0x8c, 0xfc, 0xff, 0xff, 0x38, 0x00, 0x00, 0x00, 0x73, 0x65, 0x71, 0x75,
  0x65, 0x6e, 0x74, 0x69, 0x61, 0x6c, 0x5f, 0x31, 0x2f, 0x64, 0x65, 0x6e,
  0x73, 0x65, 0x5f, 0x32, 0x5f, 0x31, 0x2f, 0x4d, 0x61, 0x74, 0x4d, 0x75,
  0x6c, 0x3b, 0x73, 0x65, 0x71, 0x75, 0x65, 0x6e, 0x74, 0x69, 0x61, 0x6c,
  0x5f, 0x31, 0x2f, 0x64, 0x65, 0x6e, 0x73, 0x65, 0x5f, 0x32, 0x5f, 0x31,
  0x2f, 0x41, 0x64, 0x64, 0x00, 0x00, 0x00, 0x00, 0x02, 0x00, 0x00, 0x00,
  0x01, 0x00, 0x00, 0x00, 0x01, 0x00, 0x00, 0x00, 0x1a, 0xfd, 0xff, 0xff,
  0x00, 0x00, 0x00, 0x01, 0x14, 0x00, 0x00, 0x00, 0x1c, 0x00, 0x00, 0x00,
  0x1c, 0x00, 0x00, 0x00, 0x09, 0x00, 0x00, 0x00, 0x74, 0x00, 0x00, 0x00,
  0x02, 0x00, 0x00, 0x00, 0xff, 0xff, 0xff, 0xff, 0x08, 0x00, 0x00, 0x00,
  0x04, 0xfd, 0xff, 0xff, 0x58, 0x00, 0x00, 0x00, 0x73, 0x65, 0x71, 0x75,
  0x65, 0x6e, 0x74, 0x69, 0x61, 0x6c, 0x5f, 0x31, 0x2f, 0x64, 0x65, 0x6e,
  0x73, 0x65, 0x5f, 0x31, 0x5f, 0x32, 0x2f, 0x4d, 0x61, 0x74, 0x4d, 0x75,
  0x6c, 0x3b, 0x73, 0x65, 0x71, 0x75, 0x65, 0x6e, 0x74, 0x69, 0x61, 0x6c,
  0x5f, 0x31, 0x2f, 0x64, 0x65, 0x6e, 0x73, 0x65, 0x5f, 0x31, 0x5f, 0x32,
  0x2f, 0x52, 0x65, 0x6c, 0x75, 0x3b, 0x73, 0x65, 0x71, 0x75, 0x65, 0x6e,
  0x74, 0x69, 0x61, 0x6c, 0x5f, 0x31, 0x2f, 0x64, 0x65, 0x6e, 0x73, 0x65,
  0x5f, 0x31, 0x5f, 0x32, 0x2f, 0x42, 0x69, 0x61, 0x73, 0x41, 0x64, 0x64,
  0x00, 0x00, 0x00, 0x00, 0x02, 0x00, 0x00, 0x00, 0x01, 0x00, 0x00, 0x00,
  0x08, 0x00, 0x00, 0x00, 0xb2, 0xfd, 0xff, 0xff, 0x00, 0x00, 0x00, 0x01,
  0x14, 0x00, 0x00, 0x00, 0x1c, 0x00, 0x00, 0x00, 0x1c, 0x00, 0x00, 0x00,
  0x08, 0x00, 0x00, 0x00, 0x6c, 0x00, 0x00, 0x00, 0x02, 0x00, 0x00, 0x00,
  0xff, 0xff, 0xff, 0xff, 0x10, 0x00, 0x00, 0x00, 0x9c, 0xfd, 0xff, 0xff,
  0x52, 0x00, 0x00, 0x00, 0x73, 0x65, 0x71, 0x75, 0x65, 0x6e, 0x74, 0x69,
  0x61, 0x6c, 0x5f, 0x31, 0x2f, 0x64, 0x65, 0x6e, 0x73, 0x65, 0x5f, 0x31,
  0x2f, 0x4d, 0x61, 0x74, 0x4d, 0x75, 0x6c, 0x3b, 0x73, 0x65, 0x71, 0x75,
  0x65, 0x6e, 0x74, 0x69, 0x61, 0x6c, 0x5f, 0x31, 0x2f, 0x64, 0x65, 0x6e,
  0x73, 0x65, 0x5f, 0x31, 0x2f, 0x52, 0x65, 0x6c, 0x75, 0x3b, 0x73, 0x65,
  0x71, 0x75, 0x65, 0x6e, 0x74, 0x69, 0x61, 0x6c, 0x5f, 0x31, 0x2f, 0x64,
  0x65, 0x6e, 0x73, 0x65, 0x5f, 0x31, 0x2f, 0x42, 0x69, 0x61, 0x73, 0x41,
  0x64, 0x64, 0x00, 0x00, 0x02, 0x00, 0x00, 0x00, 0x01, 0x00, 0x00, 0x00,
  0x10, 0x00, 0x00, 0x00, 0x96, 0xfe, 0xff, 0xff, 0x00, 0x00, 0x00, 0x01,
  0x10, 0x00, 0x00, 0x00, 0x10, 0x00, 0x00, 0x00, 0x07, 0x00, 0x00, 0x00,
  0x28, 0x00, 0x00, 0x00, 0x1c, 0xfe, 0xff, 0xff, 0x1b, 0x00, 0x00, 0x00,
  0x73, 0x65, 0x71, 0x75, 0x65, 0x6e, 0x74, 0x69, 0x61, 0x6c, 0x5f, 0x31,
  0x2f, 0x64, 0x65, 0x6e, 0x73, 0x65, 0x5f, 0x31, 0x2f, 0x4d, 0x61, 0x74,
  0x4d, 0x75, 0x6c, 0x00, 0x02, 0x00, 0x00, 0x00, 0x10, 0x00, 0x00, 0x00,
  0x08, 0x00, 0x00, 0x00, 0xde, 0xfe, 0xff, 0xff, 0x00, 0x00, 0x00, 0x01,
  0x10, 0x00, 0x00, 0x00, 0x10, 0x00, 0x00, 0x00, 0x06, 0x00, 0x00, 0x00,
  0x38, 0x00, 0x00, 0x00, 0x64, 0xfe, 0xff, 0xff, 0x2b, 0x00, 0x00, 0x00,
  0x73, 0x65, 0x71, 0x75, 0x65, 0x6e, 0x74, 0x69, 0x61, 0x6c, 0x5f, 0x31,
  0x2f, 0x64, 0x65, 0x6e, 0x73, 0x65, 0x5f, 0x31, 0x2f, 0x42, 0x69, 0x61,
  0x73, 0x41, 0x64, 0x64, 0x2f, 0x52, 0x65, 0x61, 0x64, 0x56, 0x61, 0x72,
  0x69, 0x61, 0x62, 0x6c, 0x65, 0x4f, 0x70, 0x00, 0x01, 0x00, 0x00, 0x00,
  0x10, 0x00, 0x00, 0x00, 0x32, 0xff, 0xff, 0xff, 0x00, 0x00, 0x00, 0x01,
  0x10, 0x00, 0x00, 0x00, 0x10, 0x00, 0x00, 0x00, 0x05, 0x00, 0x00, 0x00,
  0x3c, 0x00, 0x00, 0x00, 0xb8, 0xfe, 0xff, 0xff, 0x2d, 0x00, 0x00, 0x00,
  0x73, 0x65, 0x71, 0x75, 0x65, 0x6e, 0x74, 0x69, 0x61, 0x6c, 0x5f, 0x31,
  0x2f, 0x64, 0x65, 0x6e, 0x73, 0x65, 0x5f, 0x31, 0x5f, 0x32, 0x2f, 0x42,
  0x69, 0x61, 0x73, 0x41, 0x64, 0x64, 0x2f, 0x52, 0x65, 0x61, 0x64, 0x56,
  0x61, 0x72, 0x69, 0x61, 0x62, 0x6c, 0x65, 0x4f, 0x70, 0x00, 0x00, 0x00,
  0x01, 0x00, 0x00, 0x00, 0x08, 0x00, 0x00, 0x00, 0x8a, 0xff, 0xff, 0xff,
  0x00, 0x00, 0x00, 0x01, 0x10, 0x00, 0x00, 0x00, 0x10, 0x00, 0x00, 0x00,
  0x04, 0x00, 0x00, 0x00, 0x1c, 0x00, 0x00, 0x00, 0x10, 0xff, 0xff, 0xff,
  0x0f, 0x00, 0x00, 0x00, 0x61, 0x72, 0x69, 0x74, 0x68, 0x2e, 0x63, 0x6f,
  0x6e, 0x73, 0x74, 0x61, 0x6e, 0x74, 0x32, 0x00, 0x01, 0x00, 0x00, 0x00,
  0x01, 0x00, 0x00, 0x00, 0xc2, 0xff, 0xff, 0xff, 0x00, 0x00, 0x00, 0x01,
  0x10, 0x00, 0x00, 0x00, 0x10, 0x00, 0x00, 0x00, 0x03, 0x00, 0x00, 0x00,
  0x1c, 0x00, 0x00, 0x00, 0x48, 0xff, 0xff, 0xff, 0x0f, 0x00, 0x00, 0x00,
  0x61, 0x72, 0x69, 0x74, 0x68, 0x2e, 0x63, 0x6f, 0x6e, 0x73, 0x74, 0x61,
  0x6e, 0x74, 0x31, 0x00, 0x02, 0x00, 0x00, 0x00, 0x08, 0x00, 0x00, 0x00,
  0x10, 0x00, 0x00, 0x00, 0x00, 0x00, 0x16, 0x00, 0x18, 0x00, 0x14, 0x00,
  0x00, 0x00, 0x10, 0x00, 0x0c, 0x00, 0x08, 0x00, 0x00, 0x00, 0x00, 0x00,
  0x00, 0x00, 0x07, 0x00, 0x16, 0x00, 0x00, 0x00, 0x00, 0x00, 0x00, 0x01,
  0x10, 0x00, 0x00, 0x00, 0x10, 0x00, 0x00, 0x00, 0x02, 0x00, 0x00, 0x00,
  0x1c, 0x00, 0x00, 0x00, 0x9c, 0xff, 0xff, 0xff, 0x0e, 0x00, 0x00, 0x00,
  0x61, 0x72, 0x69, 0x74, 0x68, 0x2e, 0x63, 0x6f, 0x6e, 0x73, 0x74, 0x61,
  0x6e, 0x74, 0x00, 0x00, 0x02, 0x00, 0x00, 0x00, 0x01, 0x00, 0x00, 0x00,
  0x08, 0x00, 0x00, 0x00, 0x00, 0x00, 0x16, 0x00, 0x1c, 0x00, 0x18, 0x00,
  0x00, 0x00, 0x14, 0x00, 0x10, 0x00, 0x0c, 0x00, 0x00, 0x00, 0x00, 0x00,
  0x08, 0x00, 0x07, 0x00, 0x16, 0x00, 0x00, 0x00, 0x00, 0x00, 0x00, 0x01,
  0x14, 0x00, 0x00, 0x00, 0x20, 0x00, 0x00, 0x00, 0x20, 0x00, 0x00, 0x00,
  0x01, 0x00, 0x00, 0x00, 0x3c, 0x00, 0x00, 0x00, 0x02, 0x00, 0x00, 0x00,
  0xff, 0xff, 0xff, 0xff, 0x08, 0x00, 0x00, 0x00, 0x04, 0x00, 0x04, 0x00,
  0x04, 0x00, 0x00, 0x00, 0x1d, 0x00, 0x00, 0x00, 0x73, 0x65, 0x72, 0x76,
  0x69, 0x6e, 0x67, 0x5f, 0x64, 0x65, 0x66, 0x61, 0x75, 0x6c, 0x74, 0x5f,
  0x69, 0x6e, 0x70, 0x75, 0x74, 0x5f, 0x6c, 0x61, 0x79, 0x65, 0x72, 0x3a,
  0x30, 0x00, 0x00, 0x00, 0x02, 0x00, 0x00, 0x00, 0x01, 0x00, 0x00, 0x00,
  0x08, 0x00, 0x00, 0x00, 0x02, 0x00, 0x00, 0x00, 0x20, 0x00, 0x00, 0x00,
  0x04, 0x00, 0x00, 0x00, 0xf4, 0xff, 0xff, 0xff, 0x0e, 0x00, 0x00, 0x00,
  0x00, 0x00, 0x00, 0x0e, 0x0c, 0x00, 0x0c, 0x00, 0x0b, 0x00, 0x00, 0x00,
  0x00, 0x00, 0x04, 0x00, 0x0c, 0x00, 0x00, 0x00, 0x09, 0x00, 0x00, 0x00,
  0x00, 0x00, 0x00, 0x09
};
const unsigned int model_quantized_len = sizeof(model_quantized);  
